/**
  ******************************************************************************
  * @file    harsh_detection_prototype_data_params.c
  * @author  AST Embedded Analytics Research Platform
  * @date    2026-02-17T23:56:14+0500
  * @brief   AI Tool Automatic Code Generator for Embedded NN computing
  ******************************************************************************
  * Copyright (c) 2026 STMicroelectronics.
  * All rights reserved.
  *
  * This software is licensed under terms that can be found in the LICENSE file
  * in the root directory of this software component.
  * If no LICENSE file comes with this software, it is provided AS-IS.
  ******************************************************************************
  */

#include "harsh_detection_prototype_data_params.h"


/**  Activations Section  ****************************************************/
ai_handle g_harsh_detection_prototype_activations_table[1 + 2] = {
  AI_HANDLE_PTR(AI_MAGIC_MARKER),
  AI_HANDLE_PTR(NULL),
  AI_HANDLE_PTR(AI_MAGIC_MARKER),
};




/**  Weights Section  ********************************************************/
AI_ALIGNED(32)
const ai_u64 s_harsh_detection_prototype_weights_array_u64[1499] = {
  0x68c1e00fcfcd01bcU, 0x1f17a814e6341513U, 0xf3f6dfedecc0ebe8U, 0x2022d4f9c3bddf7fU,
  0xd9d5f328e7e255eeU, 0x7f581b5224234076U, 0x4408652daa3f024aU, 0xfa2f1ac4d2a2802eU,
  0x89a1878488d6138cU, 0x898d8c8483be8493U, 0x7f84b18e878b968cU, 0x8b8f94858dda8295U,
  0x90848783858c898bU, 0xe8bb8782f0cb916bU, 0x88a89188878e8885U, 0x978685b8888e85a8U,
  0x3d4808e1ab4c4223U, 0xd6a9c7eacb03b6bfU, 0x79aeeb00ec4203b7U, 0xf406e124d41bbdd7U,
  0xb7ee09ebfbb3dfdaU, 0x2f00cbd55006cf78U, 0x3ec12ee2afb7e7U, 0xe180dd43f1aeb5d8U,
  0x7fecfceffa1420cdU, 0x3f27be95538f922U, 0x23dd195947f94c08U, 0xed42e2e12b162d2aU,
  0xa185e81680a7f96U, 0xbf2be61175ab993cU, 0xd368e14f18f52899U, 0xe97fa543fb3c1c6aU,
  0x9a67bc5db0e098f5U, 0x842d380da7e7c409U, 0xf5431815f0037fcaU, 0xf7b3d81ea9dddefU,
  0x780c2424109db8cdU, 0xc806623d6fd7efefU, 0x2917b442926e54caU, 0xde0b336f2e4e7fbfU,
  0x4d701344bd19fd46U, 0x157ff661b5161a2eU, 0xcdc80fe7db721ddcU, 0x47f929e4fa81db3eU,
  0x9cabe1b745e0f545U, 0x1d992e81ea30f45eU, 0xd50abf40ec8a23f5U, 0x45ae480fd231597fU,
  0x283b19b96f2a1ff7U, 0x754b66e950007fdfU, 0xfb3e1f17d7d0fd0eU, 0xc53148d47d063417U,
  0x81f9bbf51ff65147U, 0x7f02e708fb88dbb4U, 0x79ec75f7c0f6ad96U, 0x8918ccd6733feb1bU,
  0xf4d533dfb14395dcU, 0xbe8148b8f38161c1U, 0xb3fb25b5a09d6facU, 0x1cc8b26eab3205bcU,
  0xd06fea53a28ea4aU, 0xfb75bc02a1d90585U, 0x12f81df509e7b681U, 0xf701453dc8fc0623U,
  0x379c94f081feb3fdU, 0x7fcbe0f63d027f06U, 0x7fd932fcf1bae89aU, 0x19ac48d52d49cbfdU,
  0x933f192041d3111cU, 0xa9812ecff7b906b4U, 0x2130dd5b82f7db35U, 0x52afdf880e2aac17U,
  0xc8f06a9ce91c812fU, 0x3fe41af56225ff44U, 0xeed501d1170b7ff2U, 0xe43011da3b7020eU,
  0xec287f135fcad92fU, 0x17bd17dcc20943c9U, 0xba0801c6003dd623U, 0xe3499416ad5441U,
  0xe1f2eb9278054e7fU, 0x76e7e81ad38134a9U, 0x20352a64d838effcU, 0x545001a347fb13dU,
  0x1422b709002dd25eU, 0x1ff52f2dd21b8ed9U, 0xdf7f8a0be87239b6U, 0xba23e7f0ba7fc348U,
  0xa220922bf42f47fU, 0x10e681cb99b63b54U, 0xaa1c3f3b5cbba0caU, 0x2f30424cef0283f2U,
  0x1bb106b91caa6f42U, 0xc8b6241a2afa7f8aU, 0x5a33c5d5fb7fb842U, 0xd396460981defe8U,
  0xc6ffffff73U, 0xfffffe86fffffd14U, 0xfffffd99000000f2U, 0xfffffa47fffffee1U,
  0xfffffff3fffffffbU, 0x24fffffec3U, 0xfffffebd00000105U, 0xfffffdf9000001d8U,
  0xffffff4e0000005cU, 0xfffffc34ffffffd4U, 0xfffffe10fffffe53U, 0x1000000cdU,
  0xffffff02fffffe93U, 0x108fffffe20U, 0x3cfffffd65U, 0xfffffd20fffffef7U,
  0xe5dfe21c81c00bfdU, 0x70aebbbb315cb1aU, 0xc430fadbf6bb19e3U, 0xf3e1d93245cc1bffU,
  0xdc2232072b19cdebU, 0xc6efe3f2d2ecc0c9U, 0xa1cea83a3d13cfddU, 0x3e04d6122220032cU,
  0xbf07f5274b2d30c5U, 0xcee6e290340208ceU, 0xc52ced712af3be20U, 0xe3e2b4b3e957fcc1U,
  0x81b8f979c5fafce7U, 0xbdc3ded9e0eafec5U, 0xda32d701dc1f10d7U, 0x5fdbad3b332824bU,
  0x9c150fd0f01dd01bU, 0xd1910bdfa220cdd9U, 0xe6de0beb07fad2efU, 0xd6e7fbf8b8c4e836U,
  0xc128dacfe0fdd5deU, 0xeb8cf4a0c9d2bfe4U, 0xeed1c4fd12f3f9f0U, 0xd70413e223ca59f4U,
  0x3f2fcbc5cdde0e01U, 0x99bee117a91bb1ecU, 0xd9d1bffcfbc426aeU, 0x32fee95c53031e39U,
  0x86d82d05efd7c804U, 0xfed32edceac63fcaU, 0x167bd0286606c612U, 0x1f9fc39dd611bef2U,
  0x285ba41b0d5adf47U, 0x9be5128281bce4e9U, 0x9b31cc15d226ce20U, 0x483be4e211dff4e6U,
  0x2c3cf291ffd8b7ebU, 0xd0d92e3dcc1de910U, 0x34d3c12c349f43f5U, 0xf9bb2570eb3d751fU,
  0xaf482081003fdb24U, 0x1f385ac2eb84bbfaU, 0x1a2175dfa92d13bU, 0xe1d8fbe72a393616U,
  0xcf5dc1cbdf6fcc77U, 0xf60227b3a4b5c5d3U, 0x28275a43260b3519U, 0xa8b6db58162b51c7U,
  0xf92fe815cbc54922U, 0xff29d0c906815c38U, 0x53d91535a92fb120U, 0xe4fe2721dcc004f0U,
  0xd626e341ef2ef90bU, 0xf531d5c8b5191efeU, 0x48b6f409c4eaf23aU, 0xc4a9c3f0d035fce3U,
  0xe405c31ed8cd0eb3U, 0x3e35d9d7b3d83141U, 0x25cb4648a024f31eU, 0x7c0cf1cf1eecff7U,
  0x2e5b1fe1ddc8dd57U, 0xfdc250139ae5c431U, 0x570e4ef81d1e0efcU, 0xf110e7574ced07ceU,
  0x2e213230926d018U, 0xdfea0ae8a4080d24U, 0x31fdf0f490df03bU, 0xfbfbcae41908edd4U,
  0xdc2f0814d845d3f6U, 0x81c7059e11dad1e6U, 0xf8d7052be7d7064fU, 0x6d1ceec6b5ff1e1bU,
  0xd1c9b3cbf5d5e6a8U, 0x39d8e1f9af20cef6U, 0x26d9ffe7bcfef32dU, 0xe91b24baf0f31700U,
  0x2a11e51acd1cf315U, 0xb9e0d51ed9dbc6efU, 0xfe52f6cafaf70cedU, 0xce30f5ec2c141521U,
  0x570be9e3cb38f309U, 0x1c2af0810824a0aaU, 0x19cfb3c917b5c6d7U, 0x32ece63c0a17e04bU,
  0x340f362d31b22f96U, 0xbd2ec2370edfe50aU, 0x9a2ff99cc65ab1f8U, 0xea3c4057c506cc44U,
  0xe74910f852f5ccd9U, 0xf106c500071d4981U, 0x8ccda21e5f6e1cdU, 0xe69656f0f9f82415U,
  0xd9f3154b36a238b4U, 0xac10d119f72a06d8U, 0xaea95cd110ba071dU, 0xce813d5bf1142e2dU,
  0xec60403f6c7fce2U, 0xe70bdded0621f11fU, 0x3bad4c7222902f0U, 0x32d62c08221200d4U,
  0x300fd3f232ca9eebU, 0xd4d7f6dfefa91fbaU, 0xf70deacfd1ec1c0eU, 0x32fdd0dc1739c9e8U,
  0x2ad92a1b20eedcd1U, 0x1af5ddb2d9fb0be3U, 0x2a3d07c5e82dfdd8U, 0x39af071dedf2e081U,
  0xd5dc1cf319e71e8bU, 0xeb1791151cff0626U, 0xece5d23058e10ed1U, 0xb3f8a6f8e4f33bb6U,
  0x2881a6121965dec4U, 0x330a4f014ca291fU, 0xd003fa1b3da2e029U, 0x4ab6a4c4e4094bdfU,
  0x16bd18fd033926caU, 0xed20f938ebcae7aeU, 0xe2a5ca50d7dabe75U, 0x68fdc3dfba005833U,
  0xebf454c0c0fe933fU, 0xd7be1900f42db1e7U, 0x14ccd9010912bec6U, 0x45fea11cd32704ccU,
  0xf5e311f995c793e7U, 0xbd0ffef028c823b2U, 0x4de01ff7e5d01411U, 0x1ab8a82bbe42b2e1U,
  0xf10d3adfbb0381eeU, 0xe0f0c3e11ee030b8U, 0xef873e321c0303b9U, 0xe428c2e39e20e6d3U,
  0xd109d3e2ecf03a13U, 0x3f3112152900fb34U, 0x7ff56346effcec00U, 0xd827d7051417f8f0U,
  0xc320d009141f17faU, 0xedf418dce42bfaefU, 0x3aff49131d300a1cU, 0x1421c0fee22ffbf6U,
  0xcc1d1817f2eb21feU, 0x59f9fd19de0a12efU, 0x52e46c22b71a07e7U, 0xf52713c919ea251bU,
  0x28e90bd5eb9f171fU, 0x16f56c819e401f2aU, 0x751ff68e1809e824U, 0xdcc35547fed3e8b8U,
  0x42c07f6baacd627U, 0xdf0635b3250b10f7U, 0x3136f5ecdfedf7ccU, 0xe8f3e54f6eb89c10U,
  0x1415f9261abeb80bU, 0xb61c618f0d398bd7U, 0xe625dd0b23384722U, 0x39250037392719bdU,
  0x94b4b7f5a004e000U, 0x503d6efbd2907c2U, 0xf72211bffe0cffb2U, 0xeb0ddc022605f826U,
  0x81d0effbe7c505cfU, 0xe1081021f60ae317U, 0xca20dc371d39d612U, 0xf20ff0dce60128f0U,
  0xd7c3ff2b3cff13ceU, 0xf626f414f0d9e905U, 0xd025e74407ecf016U, 0x1521e0a91bd85108U,
  0x4925c8bfe9b006e8U, 0xc8c8c303ceca0831U, 0xeb12e2c2f911fe07U, 0xe871c3431f81dc1U,
  0x3e16171542b0b5f9U, 0xda0808de01091bf6U, 0xbebdb3bdfd04dff3U, 0x27de2918f9081ee7U,
  0x2719f31a0bc48ecdU, 0xe2fbc4f816d6f9ddU, 0xf71c99b5acef1dc9U, 0x22ab180c22171b81U,
  0x3631700deb1928f4U, 0xd7cada042930e1e3U, 0x553e23c6fef137d3U, 0x73b1afab60681f0U,
  0xda16c0f3d10830edU, 0xd3c5d3db5c4007eaU, 0xf4df2abc3a3718ceU, 0xdefce1aaab6a116U,
  0xcd10fec49bfc0c15U, 0xae1f51ef70af8f9U, 0xc7311dec1be829afU, 0x2d04d4dec2e0f19dU,
  0x4ae76dfaf0ce3e33U, 0x96e7ee57e805f38bU, 0xd647a9ed47bbefaeU, 0x2f414a0ef95df917U,
  0xfd20b9cc3246c71fU, 0xe0ccdbef0fa6bae8U, 0xd7c481a9fcfaf98eU, 0xc23c693c3a3921c6U,
  0xde563d18b23138f5U, 0xa4041b29da12ecf3U, 0x8c91d016499ef4a6U, 0xb040f7f616fee7d4U,
  0x48025ca8efdce105U, 0x4915fa3a0118ff06U, 0xc85081bc2a0638f6U, 0xe0c74d0837e81ff0U,
  0xc641d1c4f0fb0edcU, 0x37cd32d10be3303cU, 0xbce1e121d9293219U, 0xb90a0a2ce807e716U,
  0xe647f8aac707fb02U, 0xd3d0dfe2fa0dfbb0U, 0xe8b7a6ecb4b7e4f7U, 0xdf89e4c0f91731d1U,
  0x3503c3eff696ced7U, 0xdd59214d19154dd6U, 0xfcd4e52a1eb21ba1U, 0x2edd06d37fa0dd20U,
  0x3218d5ff3cf798faU, 0x9f61239d6edb2f4U, 0xd8d9c6fc37e7ade0U, 0x4db5f706171f0940U,
  0xbe1705de4bfcddc7U, 0xb9490722b4712f54U, 0xa31b6fca91bc906U, 0x55ba8f05d5eddc44U,
  0x6c1f9e5be52351aU, 0x3cc0dd8b469428eaU, 0xbc1ae9373ffea3ddU, 0x2771c533b6fde5c9U,
  0x16c29e45b5f35d33U, 0xb1db44a77520fbfaU, 0xdb87f0200cbffce2U, 0x4869002281b2bb4eU,
  0xcbb84403d245253eU, 0xb7042cbd103dd7f8U, 0x1d26ce4057678ecbU, 0x503238980f3ea3e8U,
  0x850a8167078914d8U, 0xd84e101c10dd02ecU, 0xb64c081e88dbcf27U, 0xc62ad3ea15bc0052U,
  0xba1ab807bdc515e3U, 0xe4cdeafe21e7adebU, 0xca48bb1cbc0205a8U, 0xd72821a60bb8261bU,
  0xf607c76cade9d118U, 0x363adeeabb119922U, 0x8d5d2c1d3de0a97U, 0x44a9daef1515f715U,
  0x1128f481e7da0421U, 0x3c3040abde6f2ffU, 0xe8c0fb17e1e4e3d3U, 0xe8d7f6ebfcf00403U,
  0x11321f9b0f01d600U, 0xdcdedddfccdedae1U, 0xced8f21304bcead1U, 0xccd4f3f7eb12e8f1U,
  0xe32aec86edf41112U, 0xf2be1bdbba06f9f4U, 0x11dbe7db07e7ecdaU, 0xa6dcf724f2e90a13U,
  0x5995d8f1f81f24f5U, 0x14eeb90411f617f6U, 0xe5ced7ee46fc0acaU, 0x1db1062c18d8fce6U,
  0x4396274a1ce30ec6U, 0x1029d31510d034e0U, 0xe6fb09633b001f54U, 0x4affc14abbed281eU,
  0x7ff1cf103813d0c9U, 0xffdbbe90c0f2df7U, 0x350bf43af611925fU, 0x2602af19c60848e6U,
  0xaa06200905d39cf7U, 0xddcdd997a257a51aU, 0x9818d91bfcef15beU, 0x2d4910e3c342d320U,
  0xfd07e2f0de121931U, 0x9dde07eaade7feefU, 0xf1f7fae7cbede811U, 0xd0e5cfe6f103d108U,
  0xf036dde1da4ee4e0U, 0x81c7eab5d2bf1af8U, 0xcc3eb5c007b7e7fbU, 0x7cae614c2f8fb1dU,
  0xefdddd0796cc41deU, 0x102aa30b15fc5c02U, 0xc8f005b8fa20c6c6U, 0xc41b251e27add6d5U,
  0x2ef506df1b2bf6b2U, 0xcf8e0de25bcfeffU, 0xcd1eede10ddba134U, 0x3f0cd513cdfafb2fU,
  0xf902f7097f298106U, 0x9dbfabbffcc5b61fU, 0x25d5e1dcddfa09dfU, 0xf85dee4e8642710U,
  0xff33ca05081c5bd2U, 0x387ff0012e23d311U, 0x2adcf82fe836c8f1U, 0x850fedc230a2610U,
  0xecd7edf3283c411dU, 0x114e14d33b40ee2aU, 0x3e10fc58d3ec072fU, 0xcb062f25360bf031U,
  0xe826c1113ceb0ec5U, 0x60651007ff3e2ef6U, 0x91efd0831c5df36U, 0x1606fbcdee362f35U,
  0xf12ff9e6199bc213U, 0x81d7bfda18b0f52bU, 0xac42e1e4a818badfU, 0x9a2838c406f8964fU,
  0x15d6e63e1ad8f1cfU, 0xff13e3aae8f63595U, 0xf309d60eb141bac5U, 0xeade001c050cc8d2U,
  0x681bdffb55019a03U, 0xfab624b0b59ad1e8U, 0xe21318e41a113db7U, 0x35f4d1e71e3d391fU,
  0xa6bbd02e1bae2197U, 0xbd46b8b1f8f91706U, 0x22381cf4e7d4b4eeU, 0xfd1616c6f1bbb53fU,
  0x2dcde5243c1ae1a0U, 0xee950cf131a41481U, 0xfe08c5ce39200bc9U, 0x8cef93a231ce5daU,
  0x191705ed1f05a2cdU, 0xea19c6a930300a23U, 0x33281e4d4dc42ddcU, 0x22c7e22ce63c2098U,
  0xa303cbae9903fd58U, 0x381b1d89c439d7eeU, 0x78071b2b687e0011U, 0xd2048321bfff3211U,
  0x255522e50dd8e231U, 0x18a4309fd90bf2f9U, 0x6bb14211ddf90e0cU, 0xe1fde43f1f3113f5U,
  0x2622fb02c80fd359U, 0xf2fd3a12c31ce808U, 0x7ff0f7c330e3e6e5U, 0xeee3ca17fe241e09U,
  0xb04d0cab0003bb4U, 0xc89a814511ca2dd6U, 0x1912b1d8f4c5e5edU, 0xb7e50dc3fae9aed5U,
  0x14c4c0fd04de3ab7U, 0xf229ba10d8df5110U, 0xe70035d1adedc5c3U, 0x5beffddfc539c2d9U,
  0x7722d1d553fa37fcU, 0x44890deec0afc303U, 0xd14a0daad1ce02f5U, 0x478bd44837501615U,
  0x300714fcd2b227f5U, 0xe68fd15db710f7f0U, 0x86d109eb4f20458dU, 0x322010333cd3ff4cU,
  0xd9d9fb263d2e9bc1U, 0x29e55ef0becba27U, 0xbf22dd20304d14c3U, 0x3326cd1c1525b1b0U,
  0xb60c9f20f7e3ec04U, 0x81e250ddf7aa0ce7U, 0x50d7453aed3feb13U, 0x1c32ece4a02c238eU,
  0xfddff4bc230a9322U, 0xa6e520cf110ed9a6U, 0xc926e9e83817e929U, 0x5c5de4a9c3f7b9d5U,
  0x5ff1e7c1c3e62821U, 0xb8ff1ece37ff1cc7U, 0xec0bac3939d2e726U, 0x63ffecd481c8cdf9U,
  0x3b1e2ce9bb0523f4U, 0x7c0d1032a2022d1U, 0x926f6d0e60cf6e6U, 0x2d0edbede101f9caU,
  0xae252038dafc9a12U, 0xfac2f7bb1cf729dcU, 0x205b5939f767360eU, 0xdd70b7fbd9dca2f8U,
  0x30e68e2808eb0205U, 0x1b2cc781210ecff7U, 0xc2edca17fe220df4U, 0x21c0cb2ab7e49b0dU,
  0x22cd1204d3dc36ffU, 0x1e0de003e1f9c8dcU, 0x3c423fffe21fe9d0U, 0x14fc19019ae688b8U,
  0xd0cf359acf06a7f7U, 0x4a333b535debd3c5U, 0x63101381e1e51f8U, 0xca3fc7d83d01299bU,
  0xd8c40f4450d10a4cU, 0xfdf3b71347bab600U, 0x959ee45a12014aedU, 0x20cfc1d4c1380454U,
  0x201bf78f1f36d3edU, 0x1deccee7032ca51aU, 0xa203f619e082a77eU, 0xf28881ff904ccd0eU,
  0xc3f228fdacff2325U, 0x2c14d209f4250bf8U, 0xbeea11c6fc297f99U, 0xb828a8f6f38fc794U,
  0xa79624f6331502b9U, 0x25ed9b10f7f9ddb0U, 0xaefecfed1ae1af19U, 0x1bed95aaed33fd3bU,
  0x7be512cc4709e4fbU, 0xdda294e636df86a7U, 0x8cacfe521aceb27eU, 0x38bfdaa6ca25475dU,
  0xd24cbbc624e82cd9U, 0xe622ed0ec394481eU, 0xf29ef3fdc8aae009U, 0xa8ce4c1ee6811251U,
  0xbb1781f5f6db6ab1U, 0xfa24e4f60544273eU, 0xb8c8e3eddab935cfU, 0xc41b0e29ebb30256U,
  0xe02698f726ef4914U, 0x12fc0fd2a355f56U, 0xbebff920c608cb35U, 0x291e482441fbde54U,
  0xe7bcfb170df229ecU, 0x1d2bf208caece00bU, 0x413000704f91507U, 0x1dede7ed12f9f81fU,
  0xd3f10618ff18e2ffU, 0xdc1004e90d14f3feU, 0xd2c9d24af2e3c76dU, 0xe914e9cdb6251aeeU,
  0xcfeb911fd1cf111U, 0x2a32f6e3f71909d3U, 0x201d413d9eebe7fU, 0x20f0e3c6acf221edU,
  0x81eb116185d5f88bU, 0x740bdbee4f58bf3eU, 0x2d20e2f0c0ca20e4U, 0xfc7e1dd28da0eebU,
  0x98bd0e2df7c3a806U, 0x374f0ec53d210dffU, 0xce2b03edc6cfce00U, 0xe8a0c80cf8c0be02U,
  0xbdc6f669cb8ed0c5U, 0x2befdffe9d6ff99cU, 0xc23617d1dd2f3f13U, 0x9832efd2f2b3074aU,
  0xc2230fd91a28d2e4U, 0x12bbf71edd101f17U, 0x7f2d2838dd6602f1U, 0xbfdf6e4e0051508U,
  0xeff050d0306d2f5U, 0xe0dd1b0aecf4ecf2U, 0x4e156405ea1a1805U, 0x23f30b26d619c900U,
  0xc7f8f414fe0c07f9U, 0x2600d8c8c332f500U, 0x1dc6170cf9290902U, 0x8befd1ffa161cdbU,
  0x28c6e6cd19c50ff9U, 0x2430eec9bff239bfU, 0xbf03f4ff0eee34bdU, 0xd50400dc620b17a7U,
  0x6cecca32caa9afc4U, 0x1e0db3500f1d32cU, 0x2bedcdeac92c130fU, 0xf8e520f5fcc13419U,
  0x5b290bc766d9ae06U, 0xba811cbfb7f7fce3U, 0x1afeaae60ff13b10U, 0x2fcc11dcf84d2c22U,
  0xf1c09d8d3f6d326U, 0xce9424d2bb7ffb9aU, 0xe4e4f92911e9fec0U, 0xee49d4f5ca2f0039U,
  0xe616d9bfe40004f9U, 0xe3e6f30b09f0ebU, 0x20a5f0dcf98fe30cU, 0xfbe8de01fc201c1eU,
  0xd33106a3fbde030aU, 0xd0cd2102da2511bfU, 0xdb89e421d1c5e5ddU, 0xc1ebdb162409ec09U,
  0x26222ece1fb9d632U, 0x22cee5b2e349d154U, 0xaa1e000ffdb8f3ecU, 0xd730393e04ffee54U,
  0xae8ee3bd600e9e1U, 0x20de32e10e91f06U, 0xaf17d2e0cbffe9a2U, 0x5020edef60f0937U,
  0x70af2bcf00bf5c2U, 0xa6d3cdd501812a13U, 0xacffbebdf7bb26baU, 0xdfd5321333cfdecbU,
  0xdd243947e909d9e6U, 0xd08110e3fcd9ce03U, 0xd12a9036c9f01bccU, 0x3cd2adcfffee614U,
  0xac1b1737b6b1241aU, 0xd9bc04e2d01ce5dbU, 0xc734d51c1916c4f1U, 0xcaf0dae5fdd30e28U,
  0xa3e9f847ecefe1c6U, 0x8020bfe30c1c5U, 0xc912cf13ee1500f9U, 0xf41f06c1f9f334fcU,
  0x1ec0d718bd08fa03U, 0x10add717be02f6a8U, 0xe5d221f0fbd714f3U, 0xcdfce6c9f0f106e3U,
  0xb5f4dbf3f717d11bU, 0xf2adf536ea0a98edU, 0xb913140c25f71c33U, 0xe1bbcc107d3040bU,
  0xefb19a0ed19e125U, 0xb6e50506e82489e1U, 0xde35faddd7f18115U, 0x3de4ea32c2d81e4bU,
  0xb114ca3d3bdf02e4U, 0x7653bedbf92f3b0eU, 0x27ea05450036b3dfU, 0xd25a9cf38aa54e1cU,
  0xbdd93e26c7a0ffe5U, 0x519de31e54b2d60U, 0x231a254c07ecdc43U, 0xc84af3f8b0a0df2cU,
  0x1b07141d2b8e2f2aU, 0x2f7f240654060074U, 0xbeb2843ac28e306U, 0xd814ab1813bdfcffU,
  0xeebfa52e0cb2d5b7U, 0xf027c7e0b720f1d8U, 0x21f104ef09dc02e5U, 0xe2aba74b37c121ffU,
  0xccf5c76b05d8ea93U, 0xba1ae0e7e3ed02d9U, 0xd9cef93ee00cfd4bU, 0x44ce91dcc1d22b22U,
  0xacf961e07e0239bU, 0xf42716f6e7360de2U, 0xeede3bee21228173U, 0xf1c99dc7e9e1d8ddU,
  0x191b253cbcf2ee18U, 0xcfd107d8f00ec2bcU, 0xf4d602150ae420caU, 0xf12e401e2070c1aU,
  0xd20c29c6d906f8eaU, 0x1cf2e025e123d301U, 0xf316bb0c0adaed09U, 0xe507e2e30bb81bd6U,
  0x3fc02d7b6ed0e1eU, 0xeef4f2071802d5f3U, 0xf4bebaf00481e3fcU, 0xe3020506db03f62dU,
  0xade5351c0ad210eeU, 0xcbcfc428eafdf1e5U, 0xffebaab8e7231914U, 0x406dac2bc20811aU,
  0x8fcdc4d6f51500feU, 0x30af2acbe410cefbU, 0xb02ec626f90400fdU, 0xfaf4f7d5cad2f145U,
  0xc624f4f2e31def31U, 0x9bfbf5cecd2194eaU, 0xe603c6f305be1ebbU, 0xb4e134de14072743U,
  0x2312d84c1518af01U, 0xeb332fd5a936c5a0U, 0x42e13d972c33d7dfU, 0x28003307ecfea1efU,
  0x32f9372894fab266U, 0xca36daa8390adaU, 0x32f007c1e0df21cfU, 0x2e0bd6fc2cc6feceU,
  0x1dde7fc115ffaaf6U, 0x24b45302cbb60219U, 0x15372e90d4d20cb2U, 0xc4de22e10d28ebfdU,
  0x3bae49d8d333bd23U, 0x7f1930288d272fdeU, 0xf9ff1b3932ac12ebU, 0xd9a99a1e6e381ff4U,
  0x972ddd2cd336174aU, 0xa733eec703b6f2c5U, 0xb0a4c24f520a0453U, 0x33c20f2f2eeb3e26U,
  0x1602149f3933fb46U, 0x39082ed8bd3583e3U, 0x289f3ffff0c40d35U, 0xc8be6e90ef14807U,
  0x2bddce0201c3da22U, 0xfccde8f60cc64127U, 0xcfd8c8f919e4edceU, 0x16cde9340ef703a0U,
  0x918272803ebe7e7U, 0xb714eb1e022221bdU, 0x1cddf5b0161204b6U, 0x48f10fed15eee9d2U,
  0x3adde2e42afcbef4U, 0xdbd806eb22d2fb21U, 0xcf28e5d1d4291db4U, 0x2281e8f6272115aaU,
  0x4400ba84e09ef05U, 0xf5b521f624c3b73bU, 0x2d04f3faf23f4d31U, 0xab04cf11e4bbb09cU,
  0x2ccc3620e7c1a435U, 0x27f9569ef2f784dbU, 0x482955b5e3f3e4f4U, 0xc45c222924d7f704U,
  0x53ebe8f73dfb8102U, 0xe3aae7cb18c511c0U, 0x2cf6d9e505dccac2U, 0x25011c172004d8aeU,
  0x9cf11c3eb7d0bce5U, 0x41e8d9fe81d0eed9U, 0x1e865e37f93db4d5U, 0x1fb4fb6df7ee322eU,
  0xd2231afe01cfd302U, 0x7f4d2cc8e31aec03U, 0x78536fd1e01cec1U, 0xe4faaf63a527e92bU,
  0x7e4c84c2fee35c8U, 0x38310addb235f4cfU, 0x35c76d722720963aU, 0xd85bcd6d93843f9U,
  0x210612d7eaf6e61fU, 0xe10c2b05dde424b5U, 0x9012b1c5400838a1U, 0x102e36ff2816cfU,
  0xd9f521040af1faf6U, 0x810c2bc239fa3cc8U, 0xf2defeea30e72402U, 0xed322bfdfaefeeadU,
  0xf7d3d122ef280bf9U, 0xe7f0e1f60f0af5fcU, 0xdcd0c13dd2d2ac38U, 0x121a1ae313ea3ae6U,
  0xb2e3e3b441eb0af6U, 0x2b427e7a8e0b6ccU, 0xc133e5259a270fecU, 0xc7c5c9d7e6d5fa4cU,
  0xb030a9a42cc7e8dbU, 0xff053eb3a942c2f1U, 0xc70d81c614241907U, 0xe3dde9c7e1ebfa4eU,
  0x1338a427dbf2f3d6U, 0x2240b3ce2fe4e784U, 0xc14aefcdcdd1b5b8U, 0x581c2fd906c90eecU,
  0x8109a102c8dddfb8U, 0x92f9f726b2ece2f1U, 0x1a36f0d1fa153ceaU, 0x2922abb13322f6e4U,
  0xf6ddb417352bba00U, 0x112f064207d13fd6U, 0xe50bb945ecc8fb37U, 0x3a372a833a393af7U,
  0x1703c11830fad42eU, 0xfaff1532a145f5bdU, 0xd207ae54ff97e75eU, 0xf4f8b5ca233927e0U,
  0xceae100d9390ec04U, 0x3589c38b52ecc567U, 0xaf3016baac20b8b2U, 0xdae417d8f2f6caedU,
  0xa6e134352502da9fU, 0xccf15bc28d0afadU, 0xa303b316c5001cd2U, 0x19d9cec701dbac81U,
  0x3226cb4e080009d7U, 0xc9c606fbfce0e104U, 0xe925091b1a0d15e8U, 0xd7d238030107fa42U,
  0x193000fc26ffb915U, 0xd81230db00edcb10U, 0x7f0d0d294d1de510U, 0x4d6e641011905d3U,
  0xe30612e00d29e809U, 0x331427f3de0fcee2U, 0x75b96a154af30536U, 0x17b400f0171c47d1U,
  0x6aea099b17fdfbf9U, 0xcad230bf26bf07cbU, 0x35f84bfc0521120fU, 0xf60a1a04e5d7df27U,
  0x1229efe62ee21905U, 0xdcbd42f3bfd1dcddU, 0xd417a2f032e455c5U, 0xe1d2571c2b162a0cU,
  0x19f21440f1dc15c0U, 0xa8c9f8d7321a2fb9U, 0xc72f90f4db1bcee8U, 0x36e22930e822fc81U,
  0x2cdfd4580ae8e11aU, 0xcadef8d21c22d6b1U, 0xc43afa082402e8fdU, 0x6a809ed0de72187U,
  0xde0f9235cd8dd411U, 0x164429c1f240d5ebU, 0xc0f1009b5e5220cU, 0x730211a33e6c006U,
  0x8140b8d4ffd1330cU, 0x17f82ffd0225eddeU, 0x30c30d14bc0318dbU, 0xe4d2f51a221b39ebU,
  0x9de8da051a01c003U, 0xdd090f11eddd1bfeU, 0x6ff2326fcb731dcU, 0xcfc0ee383df1c7dbU,
  0xbc0441d5ea24ccbeU, 0x81e1c6efe813079aU, 0xeccfb0ad262628c3U, 0xe155f90b1cca09e5U,
  0x28fdc3111901f4d6U, 0xae2303f5df035786U, 0xcd13ac30f12af01fU, 0xad3eaee2cdd15c9U,
  0x3b30c01cf3fbc4d1U, 0xd7bc1d1d2dc70701U, 0xee38b917dedfc117U, 0x21bf1e0b10dde1f5U,
  0xb9e41e03cd8bc3f7U, 0x2426f40e4c58dc36U, 0x17377fe9e42531dbU, 0xe9bed00c16bee4efU,
  0x27e2d74ab08ccaf2U, 0xeb53d7da344aa4dbU, 0x4b4159aa3916b89bU, 0xe2f1b517c00cdd66U,
  0xd505380f301601b8U, 0x28d0e4f1f0efb800U, 0x64e55dfc0232220U, 0xe5f80833c9b5fa10U,
  0x4d155bf029f60920U, 0xddc5f60911bcf0acU, 0xaf15c32b7ae322ffU, 0xda3cf92c1b4ffddfU,
  0x4c0914090217c132U, 0x10e3eb1c47c1e1f6U, 0xacdd05327fc9f8d6U, 0xf0b49f2f029e9feU,
  0xd6450106211cec09U, 0xd302dc1edce334e8U, 0xd9ccafdf01e245bcU, 0xcfb0c37243410a1U,
  0x30204bd113f03afeU, 0xcba0d411d5e5bf2bU, 0xc74382fe3d0af1c9U, 0xef3202b144db802U,
  0x224e6e20d05cd94U, 0xd824e55304bce7c0U, 0xe6ffb0ecd12804cdU, 0xbd1474061930f5c6U,
  0x9f4d953d22b21ce1U, 0xf0f3f2fb319f4937U, 0x38b0dcf49dc4b2bcU, 0x81bb1a4b02c0cf98U,
  0xfffffccffffffd7fU, 0x13dfffffa19U, 0xffffff1affffff18U, 0xfffffc84fffffe6dU,
  0xffffff26fffffdbfU, 0xffffff83fffffc55U, 0xea000000c3U, 0xffffffa400000094U,
  0xfffffdcdffffffd5U, 0xffffff55fffffd33U, 0xfffffddfffffff76U, 0xfffffc9500000187U,
  0xffffff4dfffffcd5U, 0xfffffde2fffffd59U, 0xfffffcebfffffd67U, 0xfffffce80000000cU,
  0xfffffeb2fffffda5U, 0xfffffdd4ffffffdbU, 0xfffffee00000012dU, 0xffffff49fffffdaaU,
  0xfbfffffd85U, 0xfffffde0fffffdafU, 0xfffffff6fffffe74U, 0xfffffc3affffff0cU,
  0xfffffffb000000e5U, 0x1b0ffffff0aU, 0xffffff98fffffc2dU, 0xffffffecfffffc2dU,
  0xfffffed7ffffff25U, 0xfffffe67ffffff52U, 0x65fffffdddU, 0xffffff75ffffff7cU,
  0xf70620fd1d29d325U, 0xf2d4d7dfdb0a3203U, 0x331c46f4f5173e02U, 0x2bf4f3e2fab6e10fU,
  0xfaece208ecea11e0U, 0xb2161f0601af147fU, 0x25e90717e70b2502U, 0x10fcfef1ae5f5cdU,
  0xb153a2ece28fd1bU, 0xeaf6590b0b1b4f2fU, 0xf944d1eab421deaaU, 0xf9264cf5475c1b2cU,
  0x41e00b191a570f9fU, 0xe8d11ede304a1a81U, 0x49f6e0e11b2104c9U, 0xf816f2411cf9d22fU,
  0x1b0a20f0f4adda31U, 0xfefad30e1e11031bU, 0xf406eb0ed90bed01U, 0xefec10ec1d49fe2bU,
  0xeed7f50d100fe9c5U, 0xfdc9f42ea1390381U, 0xed1df0e800fbcbf7U, 0x6f0f31ed4ecf11cU,
  0x1c2b28f9e904da26U, 0xdb0af828f0e7240bU, 0x1c13e301d206e5d8U, 0xba30f8d761570f26U,
  0x2ae92ce529ec14a9U, 0x208113f1ce2b1b9bU, 0x3111b03e10e0df7U, 0xffbf421e217f61fU,
  0xf7e6baf908e315c0U, 0xece4e6fe171ffa03U, 0x81341e2208111a16U, 0x230fd20a2cef30d2U,
  0x1f08072fe5da24U, 0xbdc22e07c6eece93U, 0x617f34c0ad319f9U, 0x1ad8bcbe0c09c6dfU,
  0xfcf5f7d2ec18d80dU, 0x1e13c809dd4ae30eU, 0xccc4f9b60be2fdfdU, 0x10f0ede810f70edbU,
  0x260fb8e2e204fb28U, 0x8cf5dccdec811de4U, 0xc9f232be2647c2d2U, 0x250de748dd45dbe1U,
  0xe5eb5302e7791ff8U, 0xb0be59d228b14af6U, 0xd25b20f70846dfb9U, 0x6b4918ede4c4e4f0U,
  0xeead174e12323a00U, 0x9cb4112d7f46e4bbU, 0x263374171a1621caU, 0xbffad460ddde1c14U,
  0xdde1d0241706acf3U, 0x18e9170c030616c3U, 0xc9da250634c4f723U, 0x4ee70e2ae5dfd6c2U,
  0x1debfa1101c40ff4U, 0xbc38041efe810e5bU, 0xef00f0040bf3f2d8U, 0x3710df1ff9df0085U,
  0xfffefc10e9c5cafcU, 0xeef41aee0f0cd329U, 0xb72fc833fa27fcd5U, 0xdbf70ec91145e6d6U,
  0xddd5fceb30e7c301U, 0x2bae150ac85bea81U, 0x28fb0139f530ff02U, 0x60ae420ed01e930U,
  0x23ec141bcae002e1U, 0xf820e2e909e2ebf9U, 0x81fdff1e13e913caU, 0x2604e02fd2012003U,
  0xe222051d0be70226U, 0x1ae3df0c020aba9dU, 0x19f2f01d1ce415f9U, 0xeade4aba3bc514cdU,
  0xf92cc2181531e94eU, 0xe3d625dd3b153fb6U, 0x81ffc9ef2052d3e5U, 0x3900cfebfae22915U,
  0x2d2621517f3526d0U, 0xb8defc280ceccde4U, 0xe43ef66b1cbe448bU, 0xc6f8f540d2d6d2b6U,
  0xfa44feff16bc3ddeU, 0xfde5c3222c1a1af6U, 0x2722d128eae1fcdcU, 0xdcd600d80845d124U,
  0xde324f71adfcddeU, 0x58dac9e2f07ff5bfU, 0x7ffccca3322d322U, 0xde2a2dd41b1b334cU,
  0xf9ece7f71dd7e0cfU, 0xef1deefd3beefa02U, 0x81defa1907e513c5U, 0x15d10b09ffdf34c9U,
  0xdb1e0ffe25f1e335U, 0xe300fbeadf14b190U, 0x100e30b15cd051cU, 0xfaf043d421d41e0bU,
  0xea07fdd1fdcafe1eU, 0x1be0eee9d4ecddd1U, 0x4ec732fb01c9280bU, 0x38f109e9bfcdc4b4U,
  0xd239e8f808161b1aU, 0x850150c2ede227fU, 0xdced7d7fceb0be1U, 0x134202127001be1U,
  0xfbfed4dc0bd68dccU, 0xf75adf02ec7fd554U, 0x400dddedebf9e4f8U, 0x2d412b0e1415f0c6U,
  0xed30dd20dd3e5fdU, 0xf6e7d7ebc40e0bd0U, 0xc804ea064152e2cdU, 0xc51ca24ed51f3dbU,
  0x82806052417012aU, 0xcc0f0412e6dc2efaU, 0x302dc080c04f0f8U, 0xc60af8084326f604U,
  0x29eefa13d9ef16c8U, 0xf1a70511e17fd8dcU, 0x25ff1be9131a08e9U, 0xdaf0010ee51f132fU,
  0xf0df38473757720cU, 0x8c306e151e813129U, 0xdb04c5eebb4125cbU, 0xf95e29301e462628U,
  0x45a11cf7da1951f8U, 0xa826e0555719d7U, 0x2fd409d1e0c91ff7U, 0xdc180e16a8343273U,
  0x3d11c95398fae4d4U, 0xa6f628cf4c652368U, 0x9218075ce9f2fbbaU, 0x1dd5d0c7e758fd20U,
  0xc2f7dde50d0ff429U, 0x32ed2e41812de497U, 0x28ffca520a48c205U, 0xf9f3def322e72ecaU,
  0x28f5f7f61acce202U, 0xf9d4d00214cc1405U, 0x941cf3fe1913d3e6U, 0xf6dcddf23e0f2dcbU,
  0xe70afa1c21f0d5f1U, 0xd0d51c20d5220681U, 0xe9e50c22fdc1f820U, 0x12f818f1fef7efeeU,
  0xf60fe62fcbdc0633U, 0xd02f2f20f5b03448U, 0xbe9d9fbdc18f724U, 0xe2d30e0d4e531f0eU,
  0x22ee0808fbefc0bfU, 0x30d5f1169a5ece81U, 0x942e8ef1e37b31eU, 0x2b1228f427f2f636U,
  0xafe3c0f346ccf0dU, 0x10e4eeecd60affdaU, 0xc836f5be0dd73c02U, 0x440eccf1f4b1ed1aU,
  0xddf2e4f7093e0f19U, 0xc24aefd443deebe7U, 0xda0644371d052edcU, 0x5f6e331e6ec0f81U,
  0x153119000be3e32bU, 0x99f529091cd807d8U, 0xbce1fb1a3f3ee12eU, 0xd62b16f81a141f30U,
  0xcf0de13f4b1cfffcU, 0x2813b13f90ae2e3U, 0x2ce4d735d6e430e1U, 0xfa1ce238cad605eeU,
  0x22e0e80cfa19bf19U, 0xee010f011e2ed4fbU, 0xe31f0e0330f73405U, 0x419e50cdfbbe3daU,
  0xf00b17fd0107ce06U, 0xa71a09fcdf810340U, 0xfe02fe10e61616f8U, 0x4519f8fad522c9b1U,
  0x45cc24d2e905ab0eU, 0x51deb0ec36db819U, 0xff0cdb0e2a192f53U, 0x121813dedfe2d6e0U,
  0x1cccd6d72aafded6U, 0x81c4b1e8d48343b4U, 0xb8ea26c01d58b50dU, 0x2b40ff182b44fd04U,
  0x3f0204013571628U, 0xf4b039e2c031f3e5U, 0xb4fb44e4ebfb0317U, 0x3434263fdb01f647U,
  0x1bf22c63017f5817U, 0x2ece4d336348babaU, 0x11cb4807cbcf5844U, 0xfbd5d23a2026e511U,
  0xf4d41907e7c711d9U, 0x2909f0113be827d8U, 0xa9f10a0ce402eeedU, 0x1e02e110dddd2707U,
  0xfb230c11fa0fd324U, 0xfdafeaef04eec081U, 0xf8f9d92a0af7de1eU, 0xe9ca04ba26bd1de3U,
  0x39ea17cbdff7af26U, 0x3a3bc619d731e3e8U, 0xd90b07b301233641U, 0xcfef3c429c40d15U,
  0xd7dc0bdf15e4e4eaU, 0x81f6dfebe0844007U, 0xcae730ba2de3f1e8U, 0x305ce232b2ff6ccU,
  0xd02dc2aefecf6e7U, 0xdd1f20df00cfe9fcU, 0x810911290cf602daU, 0xe7fce30623ec0ae7U,
  0x21f5e81120fbe209U, 0x10c42b0de732fde0U, 0xf62af438c8e7f8e5U, 0x8def5e2f81b0c13U,
  0xeb26220cecc12feeU, 0x24d3decb33bddcc0U, 0x15225c01d7f61d07U, 0x39ddaf0bf1b8efc9U,
  0xe9f62720f1e00328U, 0xc941e0d111dbd27fU, 0xdef5b5f90de5f514U, 0xdaea04b2efccf808U,
  0xda8c52e2d33f81cU, 0xb1bf007f82ce8dfU, 0xf83754e0d0ed46e4U, 0x372b34d911812103U,
  0xce120c2b0cd71604U, 0xc9db0639a3dfad60U, 0xba0b0f38f5c52cc0U, 0x55a9c8f9fcf81209U,
  0xe3adb2ccbeeea10U, 0xfe23e6c5e3f40dffU, 0xeb29f91d12e407f2U, 0x9b2107173120221dU,
  0x16f71a01fddbcaf9U, 0x2681e40a94260584U, 0xd821db1ce328cbfeU, 0xea1ddb04faf42007U,
  0xed2609c9313e7f40U, 0xec9392809e43b07U, 0x16e5eafb0bf428c6U, 0x25010448dfcb1a23U,
  0xf311f1e49f233910U, 0x1f221dfb075edf27U, 0xf193dcde01e04213U, 0xbffe15c3ead2404eU,
  0xd2090adb291deef5U, 0xdb000f0bf8c0eb0aU, 0x3001e022ca08edf3U, 0xb40316e8423f2833U,
  0xcf0defdfd01f4c0U, 0x3a81e3ed004ce3b0U, 0x151207fdf31c2607U, 0xf527051ee212f526U,
  0x1adae51ef1340406U, 0xdc1938bff7fc20e1U, 0x812601e4f32b1fcbU, 0x421ee00ffda82bf2U,
  0x6d5d5fc362fed2bU, 0xc7cf221b542ac8a4U, 0xf1e9233dd7ee2fdfU, 0x2c804fc0818d8daU,
  0xf126e3cafd3bef15U, 0x26d539f5f83af41fU, 0x70781f0070da3ceU, 0x1adc002e441be439U,
  0x26000c1d0a2d4400U, 0x330400142513f8b7U, 0x481dd5ebee02fc0bU, 0xdbdc1205f6e91320U,
  0xefebda21d60905feU, 0x1607e8d419090ae7U, 0x811af5f703ecf01fU, 0x3ed0611e8effeecU,
  0x12150aebe7e4db21U, 0xcfe42820d413c9bcU, 0xe900fb0dd7fb15e5U, 0xf60ae8fc0c2403f3U,
  0xb0f8cbb0fda9a9d3U, 0xf958c633ff162a7fU, 0xbc02c74790eaeacbU, 0xf2241a24191bd814U,
  0x58c61bea1dbec6fcU, 0xcfc0b3cb9a4238b6U, 0x1808e320c140fcf1U, 0xf130a918f44ab325U,
  0x1a154c2feacd4de3U, 0x43fa1edf02e8f3d1U, 0xd2ce35e3eb1ebf3dU, 0xe2e0c921c894e796U,
  0xf66518030ae2284dU, 0x247fb6152836a447U, 0xc900d1b6dcc8335aU, 0xdb0465f0d897fbf7U,
  0x1d061ad3d1dc81d2U, 0xee4bdffce536b711U, 0x34ccf915f2e91e49U, 0x270becedf508ed0eU,
  0x1be6fff6f3c50bffU, 0xcdd900dbb4e310f5U, 0xd2e621e71a07da1dU, 0x1d18f40cf910f8f4U,
  0x1cfbdfe21be4aff8U, 0x513cb26f71ef8faU, 0x321418f6f4db3103U, 0x1d1dcfe2dee5f8e8U,
  0xef10cbf9141ee526U, 0x9633dde12281343bU, 0x1ac3f6e302eaffe8U, 0x1e1826ef02f3e993U,
  0xdf14ed080c094efcU, 0x221f1112f0c2f203U, 0xa20c8ffcef5da07U, 0xed0703210722fa19U,
  0xf5e70fe8ca0ceb09U, 0x45dfe4d0fb7f08eaU, 0xe321030e19070f0dU, 0xdff7161aebf62e34U,
  0xdee620023336e633U, 0xfdf43dfa183312bfU, 0xc1aced201d456efU, 0x4c24cff0ff81ee35U,
  0x22e7f1211c1500f7U, 0xb03a34c156e41bebU, 0xf71e1eef17f928dfU, 0xb73b01cfd10c0893U,
  0x1ffeebfa1b59b7e4U, 0x11fd2500b7ffe3d5U, 0x532f11e9e0100ddcU, 0x56dcdce6f1991320U,
  0x1df702f7deff2f0fU, 0xc047f81476cc0c7fU, 0x22f94b18f40f20f1U, 0x144d204d40344b4U,
  0x4501c536f1a2bde8U, 0xe641e9c2e5fde219U, 0xb904ebf90cda2822U, 0xce1709effb3f22baU,
  0xd2dbfd0544d89cc0U, 0xf79fc9d1811f2986U, 0x82a0d26c749bfecU, 0x4ded2e2829e6ce06U,
  0x1fe5ecfffa34b8e6U, 0x714060fe82a0fe7U, 0x100d2be60dea2a0eU, 0x25080bfcd1c506e6U,
  0x8f5eaefe5fdf91dU, 0xd1fef303f381e043U, 0x60811f6d8e6f014U, 0x250af206120df4b2U,
  0xe01ce18cdddc4ffU, 0xf119f1fc26120423U, 0x81e809091bb32fe0U, 0x1dfdfbdbe3c7e8e2U,
  0xd9d807101bdfdfdbU, 0xa108dadffca9f5caU, 0xeacd0e33fe29d911U, 0x9d6e6bfbc0ff914U,
  0x2de1da2208efcff7U, 0xae5f610e9f8f4fcU, 0xd9ed530e02e32b0fU, 0x2908e20fedbbfa0fU,
  0xe8f4e60deef3f0eeU, 0xb3fc1a23db81e944U, 0xd90712191d12dddfU, 0x30fcfef5e9060cd4U,
  0x51d180222c54cedU, 0x15e310f004bfcd08U, 0x1aed24e6e5e2bc14U, 0x51a5c40225c8d3c6U,
  0xf4261eb09ec6fe00U, 0xed5f19195411da7fU, 0xbafd2e927da081fU, 0xc731298fdbc52f5aU,
  0xedfa20ec0527ba07U, 0xfaecf1f2e12611e2U, 0xf4f71bc2e308290dU, 0x2df3c9eef0c6db12U,
  0xe4e6ef07fc2f2b04U, 0xb8f010f614810e2cU, 0xe4e32816eaf3fcf5U, 0x2408d6f624fcfbbaU,
  0x13431bcdc6e57f08U, 0x76a83917ebba1403U, 0x533b09d2f1c1e708U, 0x2cfa7e701cad5c4U,
  0xe93017d29d58f435U, 0x4c2a01e61526f748U, 0x3fbcbd2fe0c72c62U, 0xf3dc4cc640fa485dU,
  0x173ebb19bfeed30fU, 0xf54d01d3eff0c80cU, 0x44bd914ddfc60ad3U, 0xacbb2f364c77fce6U,
  0x2c0c19bcdcfd111eU, 0x4ae7c8d0810d2fa0U, 0x210219c52c0cb8c6U, 0xeedce813f9f30212U,
  0x694ed6a4be8fedd7U, 0x51449310c4d6e21eU, 0x3cc99efbf0e7082bU, 0xf91508d02370fdc1U,
  0x3bdae3abd8dd8be6U, 0x40f585c6813c1dd6U, 0xe003d9f52b0ec7c6U, 0x24f7ea38fddbdf44U,
  0xddf0b51ed5f0c1bfU, 0xcd2e0cb22ed617e8U, 0xb2676de27af0d2bU, 0x40c1ddfeeda5f0cfU,
  0x2eef03e3fbbd0534U, 0xe9272c19ce813074U, 0xe0e5fbc617c615f4U, 0xac5db29d6c8c8U,
  0x21fc1633d8e212caU, 0xdddb0c01ef30e525U, 0xa42881ce3116de04U, 0xf1dbd9e40e333fd2U,
  0xb927112f17f0e635U, 0xca20030eaae1c994U, 0xf708c429ba2eb523U, 0xf7e0e8d52ce7d30cU,
  0xf225d3fcdcbb0cd9U, 0xf12517211de20b2bU, 0xde29d10f417e814U, 0xe1ea1d1709490f17U,
  0x13281f06f61321c0U, 0x46d4ddf5ea441881U, 0x12cf8ff23fdef0dU, 0xe8fbfb0d1e01df47U,
  0x12d6cc1f2e2081cfU, 0xeeef06e6cf43160eU, 0x4ed533c4f8f02a02U, 0x3726dfdbd0d21a1aU,
  0x241001dbd8def11fU, 0xd1131202ea840161U, 0x2508fae325ef0ad3U, 0x24030b2d33f7d5aeU,
  0xad1821f023792531U, 0xd316484cd82658feU, 0x2376bf16b527f2adU, 0x115233ef2ac94326U,
  0x54edd43f207fed11U, 0x5adad7076a2bd50dU, 0x403861df13e325d8U, 0x2ac9ce0a60430ef5U,
  0xb82d50e51e6a292fU, 0x4cfb3a6d22061b12U, 0xac1d0fc5e51fc8daU, 0x221fdf38dfcee61aU,
  0xef592634a469411bU, 0x172201ef585b81eeU, 0x4bfe3debfc9932e7U, 0xcef7090635cf5020U,
  0xcc61d0bfe4ae46bcU, 0x6bc42f5c7642b6dcU, 0xfe49f3c3ee1ab93U, 0x42e4c52d024235dfU,
  0xe97c0a069521d2f5U, 0x511608ee237ce8e4U, 0xf8d781d81ca94005U, 0xccef589d61c33d66U,
  0xc711300ddefb7f63U, 0x66d8ff243c0f07cfU, 0x2df6f3ebf503cfe3U, 0x1901d41f0b202008U,
  0xfedc7fcb23d39f4U, 0x7e2bc1df1a2a0a46U, 0x5bd3cfec09ba3312U, 0x901301ca07eb5e17U,
  0xe94522c7e4167f25U, 0xd9b513410bcd4df2U, 0x48de320e23d9ed12U, 0xdb0a1e29343c4ff2U,
  0xf32114d7a52a3530U, 0x3341c1202746ef49U, 0x41e2ce1106ea6111U, 0xaaf749cc0f9e1e2dU,
  0x1383d1e1f9f4cd1U, 0xeb81e30007e6ebcfU, 0x95c149b2e6dea3b8U, 0x2495ef5ad0c7509aU,
  0xb347b8b9d4ccc06bU, 0x204b1c462b2f0d62U, 0xe8ebb90a42de3dffU, 0xd818f58ccda2e807U,
  0xd9eb001c1f54b814U, 0x16020702181614cdU, 0x442f1e06210828f8U, 0x3f24ddfd05fcde07U,
  0xf0f7e0e916fd1a0dU, 0xce0b02e10781e640U, 0xe1dd1021fb022110U, 0x520e939f32212a7U,
  0x2e4527cd29d66de7U, 0x20e335083cd0d71fU, 0x8d30624cb0aed01U, 0xf0e22fd8ec470ae5U,
  0x301110e7f2cacdc3U, 0x7f1b1cf1d857d4caU, 0xfdf3c0043b0b132eU, 0xbf26f805ef083a4bU,
  0x621000002d5U, 0x3adfffffe91U, 0xffffffc9fffffd05U, 0xffffff270000005eU,
  0xea00000093U, 0x5f00000069U, 0xc9ffffff30U, 0x20300000351U,
  0x24efffffef0U, 0xfffffd61000000d4U, 0x47affffff8eU, 0x19f00000169U,
  0xffffffc9fffffcccU, 0x25300000310U, 0x13800000440U, 0x2edfffffeb2U,
  0x3e200000218U, 0xfffffc390000011bU, 0x27800000353U, 0xffffffbe0000013fU,
  0x8f000001cfU, 0x7730000040fU, 0x346fffffd86U, 0xfffffd7f000000cbU,
  0xfffffba8ffffff59U, 0x4bbfffffeadU, 0xffffff550000020dU, 0xffffff7a000000edU,
  0x4d9ffffff49U, 0x3a2fffff96eU, 0x49000000eeU, 0xffffff3d000000feU,
  0x381b9e33adfc0181U, 0xcf99d443b5093933U, 0x884916cdf83f33f5U, 0xb12920153b8c2adbU,
  0xada91fb357c5298cU, 0xd244361038a2df9bU, 0xcd9f451ab1b0daafU, 0xbdce1bd0c6c9c6c0U,
  0x45e631c5a9cac53aU, 0x9d2244abde9c9199U, 0x1b6dc854ae81d3a4U, 0x90c51f1e19408a96U,
  0x36451128fc89a892U, 0x103d195a2129668eU, 0x6497a8252b0ef640U, 0xaf5ee5a2c6b9cedbU,
  0x9fb92fc4164c3791U, 0x212dc2c44ee1e341U, 0x1be60c8d54132d1cU, 0xae58bc942726bfc4U,
  0xd53e8a35f010a921U, 0xc58e08f12e8bce3aU, 0xcf413281393fd0b2U, 0x2d92a9dca8e5cc1aU,
  0xbb62baddfea4532fU, 0x2ab0a3cdbd0ae5bdU, 0xa3e7173bc30aaf41U, 0x2faa0e9b1aa3de58U,
  0x8acde1f5de272f14U, 0x9fbcd2d89d334c27U, 0xddfaedb2e381100eU, 0x963e8c2325aa4359U,
  0xcc6abad8ba3ba08U, 0xedad3c3f45ce2ecbU, 0xb3acacd0fa1c9eecU, 0x2fb2973ac0ea36f3U,
  0xd30847b9ca11d5c1U, 0x2ff783ea8106e739U, 0xe21cfe181cfe4abfU, 0x3bc3414e52313208U,
  0x203fffffd72U, 0xfffffec6000001fdU, 0xfffffd0aU,
};


ai_handle g_harsh_detection_prototype_weights_table[1 + 2] = {
  AI_HANDLE_PTR(AI_MAGIC_MARKER),
  AI_HANDLE_PTR(s_harsh_detection_prototype_weights_array_u64),
  AI_HANDLE_PTR(AI_MAGIC_MARKER),
};

